unsigned char SMVNeuralNet_tflite[] = {
  0x1c, 0x00, 0x00, 0x00, 0x54, 0x46, 0x4c, 0x33, 0x00, 0x00, 0x12, 0x00,
  0x1c, 0x00, 0x04, 0x00, 0x08, 0x00, 0x0c, 0x00, 0x10, 0x00, 0x14, 0x00,
  0x00, 0x00, 0x18, 0x00, 0x12, 0x00, 0x00, 0x00, 0x03, 0x00, 0x00, 0x00,
  0x7c, 0x0a, 0x00, 0x00, 0x2c, 0x05, 0x00, 0x00, 0x14, 0x05, 0x00, 0x00,
  0x34, 0x00, 0x00, 0x00, 0x04, 0x00, 0x00, 0x00, 0x01, 0x00, 0x00, 0x00,
  0x04, 0x00, 0x00, 0x00, 0x24, 0xf6, 0xff, 0xff, 0x08, 0x00, 0x00, 0x00,
  0x0e, 0x00, 0x00, 0x00, 0x13, 0x00, 0x00, 0x00, 0x6d, 0x69, 0x6e, 0x5f,
  0x72, 0x75, 0x6e, 0x74, 0x69, 0x6d, 0x65, 0x5f, 0x76, 0x65, 0x72, 0x73,
  0x69, 0x6f, 0x6e, 0x00, 0x0f, 0x00, 0x00, 0x00, 0xd4, 0x04, 0x00, 0x00,
  0xcc, 0x04, 0x00, 0x00, 0xc4, 0x04, 0x00, 0x00, 0xbc, 0x04, 0x00, 0x00,
  0xb4, 0x04, 0x00, 0x00, 0xac, 0x04, 0x00, 0x00, 0x9c, 0x03, 0x00, 0x00,
  0x94, 0x03, 0x00, 0x00, 0x8c, 0x03, 0x00, 0x00, 0xbc, 0x01, 0x00, 0x00,
  0x8c, 0x01, 0x00, 0x00, 0x7c, 0x00, 0x00, 0x00, 0x4c, 0x00, 0x00, 0x00,
  0x1c, 0x00, 0x00, 0x00, 0x04, 0x00, 0x00, 0x00, 0xe2, 0xfa, 0xff, 0xff,
  0x04, 0x00, 0x00, 0x00, 0x06, 0x00, 0x00, 0x00, 0x31, 0x2e, 0x31, 0x34,
  0x2e, 0x30, 0x00, 0x00, 0xf6, 0xfa, 0xff, 0xff, 0x04, 0x00, 0x00, 0x00,
  0x20, 0x00, 0x00, 0x00, 0x79, 0x5a, 0x12, 0x3f, 0xab, 0x57, 0x26, 0x3e,
  0xf0, 0x5d, 0xf3, 0xbe, 0x89, 0x61, 0xb8, 0xbe, 0x80, 0x8e, 0x09, 0xbf,
  0x94, 0x75, 0x01, 0x3f, 0xd0, 0x8a, 0x96, 0xbd, 0x19, 0xd0, 0x22, 0xbf,
  0x22, 0xfb, 0xff, 0xff, 0x04, 0x00, 0x00, 0x00, 0x20, 0x00, 0x00, 0x00,
  0x15, 0xee, 0x85, 0xbe, 0xee, 0x78, 0x65, 0x3e, 0x1a, 0x7a, 0x18, 0xbe,
  0x3f, 0xeb, 0x75, 0x3e, 0x44, 0x25, 0xe5, 0xbe, 0xbd, 0x5f, 0xe4, 0x3d,
  0xe0, 0x10, 0x49, 0xbf, 0x10, 0x68, 0x60, 0x3e, 0x4e, 0xfb, 0xff, 0xff,
  0x04, 0x00, 0x00, 0x00, 0x00, 0x01, 0x00, 0x00, 0xe8, 0x2e, 0xb5, 0xbf,
  0x01, 0x98, 0x9a, 0x3f, 0xef, 0x7e, 0x54, 0xbf, 0xf0, 0xf4, 0x72, 0xbf,
  0xc0, 0xb2, 0x4d, 0x40, 0x54, 0x82, 0xfb, 0xbf, 0xeb, 0x3a, 0xd0, 0xbf,
  0x7b, 0x26, 0x10, 0xc0, 0xb2, 0x85, 0x6e, 0xbf, 0x09, 0x81, 0x0e, 0xbf,
  0x24, 0xa7, 0x87, 0x3f, 0xda, 0xf5, 0xc3, 0x3f, 0x8b, 0x2d, 0x34, 0x40,
  0x8e, 0x74, 0x11, 0xc0, 0xfa, 0xfa, 0x61, 0xbf, 0x50, 0x33, 0xa8, 0xbf,
  0x4e, 0xff, 0xc7, 0x3f, 0xf6, 0x31, 0x92, 0x3e, 0x03, 0xba, 0xf8, 0xbe,
  0x0e, 0x2b, 0x97, 0xbf, 0x81, 0xb4, 0x59, 0xc0, 0x0b, 0x1b, 0x6c, 0x3f,
  0x18, 0x1a, 0xc9, 0x3f, 0x65, 0xbf, 0xa0, 0x3f, 0x44, 0xf3, 0x11, 0x40,
  0xfe, 0x7d, 0x8c, 0x3f, 0x80, 0x35, 0xaf, 0xbf, 0xe0, 0xbe, 0xe6, 0x3f,
  0xd7, 0x4c, 0x51, 0xbf, 0xd8, 0x7e, 0x32, 0x3d, 0x8a, 0x9f, 0x87, 0xbe,
  0xbb, 0x09, 0xc0, 0xbe, 0xc4, 0x67, 0xb0, 0x3f, 0xef, 0x8a, 0xac, 0xbe,
  0xbd, 0x85, 0x9a, 0xbf, 0xa5, 0x52, 0x55, 0xbe, 0xa9, 0x46, 0x86, 0xbf,
  0x28, 0x5e, 0x96, 0xbf, 0x94, 0xaa, 0xf3, 0x3f, 0x97, 0xc6, 0xbe, 0xbf,
  0x51, 0x49, 0x9a, 0x3f, 0x89, 0xbd, 0x79, 0x3f, 0xf7, 0x06, 0xd3, 0x3f,
  0xfa, 0x23, 0x84, 0x3f, 0xeb, 0x61, 0x97, 0xbf, 0x31, 0x98, 0x40, 0x3f,
  0x71, 0x93, 0xd1, 0xbf, 0x59, 0xe1, 0x03, 0x40, 0x0e, 0x0c, 0xd1, 0xbc,
  0xd3, 0x6d, 0x2c, 0xc0, 0x6b, 0xb1, 0x28, 0x3e, 0x5a, 0xf2, 0x0c, 0x40,
  0x9f, 0xa2, 0xeb, 0xbe, 0x54, 0x44, 0xa9, 0xbf, 0x9f, 0xb4, 0xd3, 0xbf,
  0xc5, 0x3a, 0xb3, 0xbd, 0x14, 0x35, 0x6e, 0xbf, 0xe0, 0xd8, 0xf6, 0xbf,
  0x5e, 0x10, 0xdb, 0xbf, 0xad, 0x6a, 0x47, 0x3f, 0xd5, 0xf8, 0x31, 0x3e,
  0xa7, 0xb2, 0x0d, 0xc0, 0x3a, 0xa0, 0xd0, 0x3f, 0xd4, 0xc4, 0x0d, 0xc0,
  0x5a, 0xfc, 0xff, 0xff, 0x04, 0x00, 0x00, 0x00, 0x20, 0x00, 0x00, 0x00,
  0x11, 0x23, 0xe5, 0x3d, 0x43, 0x2b, 0x98, 0xbd, 0x7b, 0x4f, 0x16, 0xbe,
  0x9a, 0x25, 0x5b, 0x3e, 0x47, 0x58, 0x14, 0xbe, 0xea, 0x03, 0x05, 0xbc,
  0x19, 0x9a, 0x65, 0x3d, 0xde, 0x8b, 0xd2, 0xbd, 0x86, 0xfc, 0xff, 0xff,
  0x04, 0x00, 0x00, 0x00, 0xc0, 0x01, 0x00, 0x00, 0x1a, 0x6c, 0x32, 0xc0,
  0x2c, 0xb5, 0x8f, 0xbf, 0x6b, 0x9a, 0xc4, 0x3f, 0xcf, 0xff, 0x52, 0xbf,
  0xbc, 0x2a, 0x20, 0xc0, 0x40, 0xbe, 0x1f, 0xc0, 0x61, 0x98, 0x2f, 0x3e,
  0x08, 0x0a, 0x3f, 0x3f, 0xa5, 0x18, 0xdb, 0xbf, 0x63, 0xeb, 0xba, 0xbf,
  0x82, 0x02, 0x02, 0xc0, 0xff, 0xf6, 0xfb, 0xbf, 0x9a, 0x27, 0xa1, 0x3e,
  0xf6, 0xa1, 0xf1, 0xbd, 0x61, 0xa1, 0xac, 0xbe, 0x98, 0xad, 0x50, 0xbb,
  0xfc, 0x5c, 0x8e, 0xbf, 0x92, 0xc6, 0x86, 0x3f, 0xb4, 0xed, 0x7f, 0x3e,
  0xee, 0xd5, 0x6f, 0x3f, 0xb5, 0xa4, 0x11, 0xc0, 0xcd, 0xc9, 0xae, 0x3f,
  0xde, 0xb9, 0x24, 0xbf, 0xd5, 0x80, 0xa5, 0x3f, 0x32, 0x74, 0x19, 0x40,
  0x91, 0x7b, 0x41, 0xc0, 0x03, 0x8a, 0x18, 0xbe, 0xde, 0xca, 0x80, 0xbf,
  0x65, 0xe9, 0x6e, 0xbf, 0xa0, 0x46, 0xb9, 0x3e, 0xbf, 0x2c, 0x63, 0xbf,
  0x2c, 0x21, 0x6c, 0x3e, 0xb9, 0xac, 0xc6, 0xbf, 0x88, 0xed, 0xc4, 0x3e,
  0xf6, 0x61, 0xda, 0xbe, 0x6e, 0x1a, 0xcf, 0xbf, 0x66, 0x33, 0x98, 0x3f,
  0xf5, 0xbf, 0x12, 0x40, 0x29, 0x52, 0x54, 0x40, 0x97, 0x19, 0x32, 0x40,
  0xfe, 0x15, 0x2c, 0x3f, 0xb9, 0xcc, 0xdb, 0xbf, 0xb1, 0x27, 0xaf, 0x3e,
  0x0d, 0xb5, 0x83, 0xbf, 0x25, 0x19, 0xb2, 0x3e, 0xa2, 0x38, 0x6c, 0xbf,
  0x4c, 0x2c, 0xd9, 0x3f, 0xc5, 0xa8, 0x06, 0xc0, 0x72, 0x82, 0x04, 0x3f,
  0xc8, 0x80, 0x04, 0xc0, 0x7c, 0x7c, 0x98, 0xbf, 0x68, 0xa6, 0x97, 0xbf,
  0x85, 0x89, 0x49, 0xc0, 0xef, 0x30, 0x78, 0x40, 0x20, 0xf2, 0x86, 0xbe,
  0x00, 0x50, 0xc0, 0x3f, 0x87, 0x2c, 0xac, 0x40, 0x67, 0x4a, 0x70, 0x3f,
  0x33, 0x93, 0xac, 0xbe, 0xf8, 0x8e, 0x9e, 0x3f, 0xda, 0xb7, 0xaf, 0x40,
  0x94, 0x73, 0xcb, 0x3f, 0xa7, 0xf2, 0x96, 0xbf, 0x20, 0x72, 0x5f, 0xbf,
  0x57, 0x51, 0x0b, 0x3f, 0x6f, 0x53, 0xdb, 0xbc, 0x51, 0x71, 0x69, 0x3e,
  0xce, 0xa1, 0x8b, 0x3f, 0x0a, 0x30, 0x10, 0xbf, 0x88, 0x87, 0x91, 0x3f,
  0x95, 0x6f, 0xa2, 0xc0, 0xa0, 0xdd, 0xb6, 0xbe, 0x63, 0x8c, 0x2a, 0x3f,
  0x97, 0x63, 0xc0, 0xbf, 0x2a, 0x47, 0xa5, 0xc0, 0x4a, 0x50, 0x80, 0xbe,
  0x92, 0xd3, 0x29, 0xbf, 0xf8, 0xc6, 0x01, 0xbd, 0x48, 0xa7, 0xa6, 0x3f,
  0xd3, 0x31, 0x49, 0x3e, 0xef, 0xb8, 0x4c, 0x40, 0xfe, 0x8e, 0x6c, 0x3f,
  0xd1, 0x89, 0x9a, 0xbd, 0xb9, 0x24, 0xd7, 0xbf, 0xb9, 0x90, 0xd5, 0xbf,
  0xb2, 0xf7, 0xd1, 0x3c, 0xc2, 0x2b, 0xb7, 0x3f, 0x8c, 0x39, 0xb9, 0xbe,
  0xf8, 0x83, 0x0c, 0xc0, 0x85, 0xa8, 0x5c, 0xbd, 0xce, 0x2d, 0x26, 0x3f,
  0x11, 0x07, 0xaf, 0x3f, 0x69, 0x19, 0x81, 0x3f, 0xd6, 0xd2, 0xcc, 0xbe,
  0x2a, 0xfe, 0x1c, 0xc0, 0x14, 0xa4, 0x5a, 0xc0, 0x04, 0xab, 0x7f, 0x3e,
  0xc7, 0xf1, 0x54, 0x3f, 0xff, 0xde, 0x89, 0xc0, 0x58, 0x6e, 0x1a, 0xbf,
  0x0e, 0xbe, 0x02, 0x3f, 0x76, 0x86, 0xb5, 0xbf, 0x47, 0x2d, 0x97, 0xc0,
  0x0b, 0x54, 0x84, 0xbf, 0xf2, 0x6a, 0xb8, 0xbe, 0xd8, 0x89, 0xce, 0xbf,
  0x69, 0x61, 0x21, 0x3e, 0xf0, 0xe9, 0x32, 0x3f, 0x28, 0xbb, 0x47, 0x40,
  0x7d, 0xfd, 0x51, 0x40, 0xa7, 0x97, 0x30, 0x3f, 0x66, 0x5e, 0x8b, 0xbf,
  0x98, 0xf9, 0xff, 0xff, 0x9c, 0xf9, 0xff, 0xff, 0x5a, 0xfe, 0xff, 0xff,
  0x04, 0x00, 0x00, 0x00, 0x00, 0x01, 0x00, 0x00, 0xf1, 0x2c, 0x22, 0xc0,
  0x3a, 0x33, 0x1a, 0xc0, 0xc0, 0x2f, 0xff, 0x3f, 0x3d, 0x3b, 0x2b, 0xbf,
  0xdd, 0xc8, 0xa5, 0xbf, 0xfd, 0x2e, 0xe4, 0x3f, 0x3c, 0x18, 0xa3, 0xbf,
  0x74, 0x6c, 0xb0, 0xbf, 0xcf, 0x4c, 0x47, 0x40, 0xc6, 0x7a, 0x03, 0x3f,
  0x5d, 0x88, 0x25, 0xbf, 0xe4, 0xf8, 0x90, 0xbf, 0xbb, 0x76, 0x71, 0xbf,
  0x62, 0x79, 0x98, 0x3f, 0x54, 0x57, 0xbc, 0xbf, 0x58, 0x96, 0xb6, 0xbf,
  0x99, 0xd1, 0x7b, 0xbf, 0x2e, 0x3c, 0xb0, 0x3e, 0x26, 0x69, 0x0d, 0x40,
  0x98, 0xb6, 0xfb, 0x3f, 0x97, 0xdb, 0x2a, 0x40, 0x92, 0x7c, 0x0a, 0x40,
  0x43, 0xba, 0x3e, 0x40, 0x79, 0xf1, 0x0e, 0x40, 0xc8, 0xf6, 0x92, 0xbf,
  0xeb, 0xee, 0xd6, 0xbf, 0x38, 0xc3, 0xa9, 0x3f, 0x9d, 0x64, 0x89, 0x3f,
  0x33, 0x62, 0xe8, 0x3f, 0x50, 0xd9, 0xf0, 0xbf, 0xfe, 0x75, 0xa1, 0xbf,
  0x5c, 0x2e, 0x1d, 0x40, 0xb3, 0x35, 0x0b, 0xc0, 0x8e, 0xd0, 0xd8, 0x3f,
  0x85, 0xd0, 0x65, 0xbf, 0x69, 0x27, 0xa6, 0xbf, 0x98, 0x1e, 0xc8, 0xbf,
  0x71, 0x07, 0xbe, 0x3f, 0x8f, 0xa0, 0x42, 0x40, 0xb2, 0xd8, 0x30, 0x3f,
  0xfe, 0xe2, 0x9b, 0x3f, 0x9b, 0xec, 0xb0, 0x3f, 0xa1, 0x8a, 0x0a, 0xc0,
  0x9b, 0x6a, 0x3d, 0x40, 0x89, 0x04, 0x97, 0x3f, 0xdd, 0xb6, 0x74, 0xbf,
  0x49, 0x17, 0x91, 0x3f, 0x52, 0x25, 0x89, 0x3f, 0x44, 0xaa, 0xf4, 0x3f,
  0x53, 0x66, 0x9a, 0x3e, 0xd2, 0x93, 0x27, 0xbf, 0xaa, 0xc5, 0x34, 0xc0,
  0x2c, 0x38, 0x1e, 0x40, 0xc1, 0xce, 0xcf, 0xbf, 0x45, 0x36, 0xf9, 0xbf,
  0xe0, 0xe5, 0xcf, 0x3f, 0xc9, 0xf9, 0xfc, 0x3f, 0x0a, 0x61, 0x40, 0x3f,
  0x50, 0xd6, 0xc4, 0xbf, 0x21, 0xa4, 0x1e, 0xc0, 0x32, 0xfa, 0x1b, 0xc0,
  0x35, 0xfd, 0xab, 0xbf, 0x17, 0x9e, 0x02, 0x40, 0x64, 0x58, 0xee, 0x3f,
  0xac, 0xfa, 0xff, 0xff, 0xb0, 0xfa, 0xff, 0xff, 0xb4, 0xfa, 0xff, 0xff,
  0xb8, 0xfa, 0xff, 0xff, 0xbc, 0xfa, 0xff, 0xff, 0xc0, 0xfa, 0xff, 0xff,
  0x0f, 0x00, 0x00, 0x00, 0x54, 0x4f, 0x43, 0x4f, 0x20, 0x43, 0x6f, 0x6e,
  0x76, 0x65, 0x72, 0x74, 0x65, 0x64, 0x2e, 0x00, 0x01, 0x00, 0x00, 0x00,
  0x10, 0x00, 0x00, 0x00, 0x0c, 0x00, 0x14, 0x00, 0x04, 0x00, 0x08, 0x00,
  0x0c, 0x00, 0x10, 0x00, 0x0c, 0x00, 0x00, 0x00, 0x70, 0x01, 0x00, 0x00,
  0x64, 0x01, 0x00, 0x00, 0x58, 0x01, 0x00, 0x00, 0x04, 0x00, 0x00, 0x00,
  0x06, 0x00, 0x00, 0x00, 0x1c, 0x01, 0x00, 0x00, 0xe8, 0x00, 0x00, 0x00,
  0xa8, 0x00, 0x00, 0x00, 0x84, 0x00, 0x00, 0x00, 0x50, 0x00, 0x00, 0x00,
  0x14, 0x00, 0x00, 0x00, 0x00, 0x00, 0x0e, 0x00, 0x1a, 0x00, 0x08, 0x00,
  0x0c, 0x00, 0x10, 0x00, 0x07, 0x00, 0x14, 0x00, 0x0e, 0x00, 0x00, 0x00,
  0x00, 0x00, 0x00, 0x09, 0x01, 0x00, 0x00, 0x00, 0x24, 0x00, 0x00, 0x00,
  0x18, 0x00, 0x00, 0x00, 0x0c, 0x00, 0x00, 0x00, 0x00, 0x00, 0x06, 0x00,
  0x08, 0x00, 0x04, 0x00, 0x06, 0x00, 0x00, 0x00, 0x00, 0x00, 0x80, 0x3f,
  0x01, 0x00, 0x00, 0x00, 0x00, 0x00, 0x00, 0x00, 0x01, 0x00, 0x00, 0x00,
  0x0a, 0x00, 0x00, 0x00, 0x52, 0xff, 0xff, 0xff, 0x00, 0x00, 0x00, 0x08,
  0x18, 0x00, 0x00, 0x00, 0x0c, 0x00, 0x00, 0x00, 0x04, 0x00, 0x00, 0x00,
  0x78, 0xfb, 0xff, 0xff, 0x01, 0x00, 0x00, 0x00, 0x0a, 0x00, 0x00, 0x00,
  0x03, 0x00, 0x00, 0x00, 0x09, 0x00, 0x00, 0x00, 0x0b, 0x00, 0x00, 0x00,
  0x0c, 0x00, 0x00, 0x00, 0xae, 0xff, 0xff, 0xff, 0x02, 0x00, 0x00, 0x00,
  0x10, 0x00, 0x00, 0x00, 0x04, 0x00, 0x00, 0x00, 0x01, 0x00, 0x00, 0x00,
  0x09, 0x00, 0x00, 0x00, 0x01, 0x00, 0x00, 0x00, 0x06, 0x00, 0x00, 0x00,
  0xa2, 0xff, 0xff, 0xff, 0x00, 0x00, 0x00, 0x08, 0x18, 0x00, 0x00, 0x00,
  0x0c, 0x00, 0x00, 0x00, 0x04, 0x00, 0x00, 0x00, 0xc8, 0xfb, 0xff, 0xff,
  0x01, 0x00, 0x00, 0x00, 0x06, 0x00, 0x00, 0x00, 0x03, 0x00, 0x00, 0x00,
  0x05, 0x00, 0x00, 0x00, 0x07, 0x00, 0x00, 0x00, 0x08, 0x00, 0x00, 0x00,
  0x00, 0x00, 0x0a, 0x00, 0x10, 0x00, 0x04, 0x00, 0x08, 0x00, 0x0c, 0x00,
  0x0a, 0x00, 0x00, 0x00, 0x02, 0x00, 0x00, 0x00, 0x10, 0x00, 0x00, 0x00,
  0x04, 0x00, 0x00, 0x00, 0x01, 0x00, 0x00, 0x00, 0x05, 0x00, 0x00, 0x00,
  0x01, 0x00, 0x00, 0x00, 0x02, 0x00, 0x00, 0x00, 0x00, 0x00, 0x0e, 0x00,
  0x14, 0x00, 0x00, 0x00, 0x08, 0x00, 0x0c, 0x00, 0x07, 0x00, 0x10, 0x00,
  0x0e, 0x00, 0x00, 0x00, 0x00, 0x00, 0x00, 0x08, 0x18, 0x00, 0x00, 0x00,
  0x0c, 0x00, 0x00, 0x00, 0x04, 0x00, 0x00, 0x00, 0x34, 0xfc, 0xff, 0xff,
  0x01, 0x00, 0x00, 0x00, 0x02, 0x00, 0x00, 0x00, 0x03, 0x00, 0x00, 0x00,
  0x01, 0x00, 0x00, 0x00, 0x03, 0x00, 0x00, 0x00, 0x04, 0x00, 0x00, 0x00,
  0x01, 0x00, 0x00, 0x00, 0x00, 0x00, 0x00, 0x00, 0x01, 0x00, 0x00, 0x00,
  0x01, 0x00, 0x00, 0x00, 0x0d, 0x00, 0x00, 0x00, 0x88, 0x03, 0x00, 0x00,
  0x24, 0x03, 0x00, 0x00, 0xe4, 0x02, 0x00, 0x00, 0x8c, 0x02, 0x00, 0x00,
  0x4c, 0x02, 0x00, 0x00, 0x0c, 0x02, 0x00, 0x00, 0xc8, 0x01, 0x00, 0x00,
  0x6c, 0x01, 0x00, 0x00, 0x28, 0x01, 0x00, 0x00, 0xe8, 0x00, 0x00, 0x00,
  0xa4, 0x00, 0x00, 0x00, 0x48, 0x00, 0x00, 0x00, 0x04, 0x00, 0x00, 0x00,
  0xba, 0xfc, 0xff, 0xff, 0x34, 0x00, 0x00, 0x00, 0x0d, 0x00, 0x00, 0x00,
  0x0c, 0x00, 0x00, 0x00, 0x04, 0x00, 0x00, 0x00, 0xac, 0xfc, 0xff, 0xff,
  0x19, 0x00, 0x00, 0x00, 0x6d, 0x6f, 0x64, 0x65, 0x6c, 0x2f, 0x64, 0x65,
  0x6e, 0x73, 0x65, 0x5f, 0x32, 0x2f, 0x4d, 0x61, 0x74, 0x4d, 0x75, 0x6c,
  0x5f, 0x62, 0x69, 0x61, 0x73, 0x00, 0x00, 0x00, 0x01, 0x00, 0x00, 0x00,
  0x08, 0x00, 0x00, 0x00, 0xfa, 0xfc, 0xff, 0xff, 0x48, 0x00, 0x00, 0x00,
  0x06, 0x00, 0x00, 0x00, 0x0c, 0x00, 0x00, 0x00, 0x04, 0x00, 0x00, 0x00,
  0xec, 0xfc, 0xff, 0xff, 0x2d, 0x00, 0x00, 0x00, 0x6d, 0x6f, 0x64, 0x65,
  0x6c, 0x2f, 0x64, 0x65, 0x6e, 0x73, 0x65, 0x5f, 0x32, 0x2f, 0x4d, 0x61,
  0x74, 0x4d, 0x75, 0x6c, 0x2f, 0x52, 0x65, 0x61, 0x64, 0x56, 0x61, 0x72,
  0x69, 0x61, 0x62, 0x6c, 0x65, 0x4f, 0x70, 0x2f, 0x74, 0x72, 0x61, 0x6e,
  0x73, 0x70, 0x6f, 0x73, 0x65, 0x00, 0x00, 0x00, 0x02, 0x00, 0x00, 0x00,
  0x08, 0x00, 0x00, 0x00, 0x08, 0x00, 0x00, 0x00, 0x52, 0xfd, 0xff, 0xff,
  0x30, 0x00, 0x00, 0x00, 0x08, 0x00, 0x00, 0x00, 0x0c, 0x00, 0x00, 0x00,
  0x04, 0x00, 0x00, 0x00, 0x44, 0xfd, 0xff, 0xff, 0x15, 0x00, 0x00, 0x00,
  0x6d, 0x6f, 0x64, 0x65, 0x6c, 0x2f, 0x64, 0x65, 0x6e, 0x73, 0x65, 0x5f,
  0x32, 0x2f, 0x42, 0x69, 0x61, 0x73, 0x41, 0x64, 0x64, 0x00, 0x00, 0x00,
  0x02, 0x00, 0x00, 0x00, 0x01, 0x00, 0x00, 0x00, 0x08, 0x00, 0x00, 0x00,
  0x92, 0xfd, 0xff, 0xff, 0x2c, 0x00, 0x00, 0x00, 0x07, 0x00, 0x00, 0x00,
  0x0c, 0x00, 0x00, 0x00, 0x04, 0x00, 0x00, 0x00, 0x84, 0xfd, 0xff, 0xff,
  0x12, 0x00, 0x00, 0x00, 0x6d, 0x6f, 0x64, 0x65, 0x6c, 0x2f, 0x64, 0x65,
  0x6e, 0x73, 0x65, 0x5f, 0x31, 0x2f, 0x54, 0x61, 0x6e, 0x68, 0x00, 0x00,
  0x02, 0x00, 0x00, 0x00, 0x01, 0x00, 0x00, 0x00, 0x08, 0x00, 0x00, 0x00,
  0xce, 0xfd, 0xff, 0xff, 0x34, 0x00, 0x00, 0x00, 0x0c, 0x00, 0x00, 0x00,
  0x0c, 0x00, 0x00, 0x00, 0x04, 0x00, 0x00, 0x00, 0xc0, 0xfd, 0xff, 0xff,
  0x19, 0x00, 0x00, 0x00, 0x6d, 0x6f, 0x64, 0x65, 0x6c, 0x2f, 0x64, 0x65,
  0x6e, 0x73, 0x65, 0x5f, 0x31, 0x2f, 0x4d, 0x61, 0x74, 0x4d, 0x75, 0x6c,
  0x5f, 0x62, 0x69, 0x61, 0x73, 0x00, 0x00, 0x00, 0x01, 0x00, 0x00, 0x00,
  0x08, 0x00, 0x00, 0x00, 0x0e, 0xfe, 0xff, 0xff, 0x48, 0x00, 0x00, 0x00,
  0x0b, 0x00, 0x00, 0x00, 0x0c, 0x00, 0x00, 0x00, 0x04, 0x00, 0x00, 0x00,
  0x00, 0xfe, 0xff, 0xff, 0x2d, 0x00, 0x00, 0x00, 0x6d, 0x6f, 0x64, 0x65,
  0x6c, 0x2f, 0x64, 0x65, 0x6e, 0x73, 0x65, 0x5f, 0x31, 0x2f, 0x4d, 0x61,
  0x74, 0x4d, 0x75, 0x6c, 0x2f, 0x52, 0x65, 0x61, 0x64, 0x56, 0x61, 0x72,
  0x69, 0x61, 0x62, 0x6c, 0x65, 0x4f, 0x70, 0x2f, 0x74, 0x72, 0x61, 0x6e,
  0x73, 0x70, 0x6f, 0x73, 0x65, 0x00, 0x00, 0x00, 0x02, 0x00, 0x00, 0x00,
  0x08, 0x00, 0x00, 0x00, 0x08, 0x00, 0x00, 0x00, 0x66, 0xfe, 0xff, 0xff,
  0x30, 0x00, 0x00, 0x00, 0x05, 0x00, 0x00, 0x00, 0x0c, 0x00, 0x00, 0x00,
  0x04, 0x00, 0x00, 0x00, 0x58, 0xfe, 0xff, 0xff, 0x15, 0x00, 0x00, 0x00,
  0x6d, 0x6f, 0x64, 0x65, 0x6c, 0x2f, 0x64, 0x65, 0x6e, 0x73, 0x65, 0x5f,
  0x31, 0x2f, 0x42, 0x69, 0x61, 0x73, 0x41, 0x64, 0x64, 0x00, 0x00, 0x00,
  0x02, 0x00, 0x00, 0x00, 0x01, 0x00, 0x00, 0x00, 0x08, 0x00, 0x00, 0x00,
  0xa6, 0xfe, 0xff, 0xff, 0x2c, 0x00, 0x00, 0x00, 0x04, 0x00, 0x00, 0x00,
  0x0c, 0x00, 0x00, 0x00, 0x04, 0x00, 0x00, 0x00, 0x98, 0xfe, 0xff, 0xff,
  0x10, 0x00, 0x00, 0x00, 0x6d, 0x6f, 0x64, 0x65, 0x6c, 0x2f, 0x64, 0x65,
  0x6e, 0x73, 0x65, 0x2f, 0x54, 0x61, 0x6e, 0x68, 0x00, 0x00, 0x00, 0x00,
  0x02, 0x00, 0x00, 0x00, 0x01, 0x00, 0x00, 0x00, 0x08, 0x00, 0x00, 0x00,
  0xe2, 0xfe, 0xff, 0xff, 0x30, 0x00, 0x00, 0x00, 0x0a, 0x00, 0x00, 0x00,
  0x0c, 0x00, 0x00, 0x00, 0x04, 0x00, 0x00, 0x00, 0xd4, 0xfe, 0xff, 0xff,
  0x17, 0x00, 0x00, 0x00, 0x6d, 0x6f, 0x64, 0x65, 0x6c, 0x2f, 0x64, 0x65,
  0x6e, 0x73, 0x65, 0x2f, 0x4d, 0x61, 0x74, 0x4d, 0x75, 0x6c, 0x5f, 0x62,
  0x69, 0x61, 0x73, 0x00, 0x01, 0x00, 0x00, 0x00, 0x08, 0x00, 0x00, 0x00,
  0x1e, 0xff, 0xff, 0xff, 0x44, 0x00, 0x00, 0x00, 0x09, 0x00, 0x00, 0x00,
  0x0c, 0x00, 0x00, 0x00, 0x04, 0x00, 0x00, 0x00, 0x10, 0xff, 0xff, 0xff,
  0x2b, 0x00, 0x00, 0x00, 0x6d, 0x6f, 0x64, 0x65, 0x6c, 0x2f, 0x64, 0x65,
  0x6e, 0x73, 0x65, 0x2f, 0x4d, 0x61, 0x74, 0x4d, 0x75, 0x6c, 0x2f, 0x52,
  0x65, 0x61, 0x64, 0x56, 0x61, 0x72, 0x69, 0x61, 0x62, 0x6c, 0x65, 0x4f,
  0x70, 0x2f, 0x74, 0x72, 0x61, 0x6e, 0x73, 0x70, 0x6f, 0x73, 0x65, 0x00,
  0x02, 0x00, 0x00, 0x00, 0x08, 0x00, 0x00, 0x00, 0x0e, 0x00, 0x00, 0x00,
  0x72, 0xff, 0xff, 0xff, 0x2c, 0x00, 0x00, 0x00, 0x03, 0x00, 0x00, 0x00,
  0x0c, 0x00, 0x00, 0x00, 0x04, 0x00, 0x00, 0x00, 0x64, 0xff, 0xff, 0xff,
  0x13, 0x00, 0x00, 0x00, 0x6d, 0x6f, 0x64, 0x65, 0x6c, 0x2f, 0x64, 0x65,
  0x6e, 0x73, 0x65, 0x2f, 0x42, 0x69, 0x61, 0x73, 0x41, 0x64, 0x64, 0x00,
  0x02, 0x00, 0x00, 0x00, 0x01, 0x00, 0x00, 0x00, 0x08, 0x00, 0x00, 0x00,
  0xae, 0xff, 0xff, 0xff, 0x40, 0x00, 0x00, 0x00, 0x01, 0x00, 0x00, 0x00,
  0x2c, 0x00, 0x00, 0x00, 0x0c, 0x00, 0x00, 0x00, 0x08, 0x00, 0x0c, 0x00,
  0x04, 0x00, 0x08, 0x00, 0x08, 0x00, 0x00, 0x00, 0x10, 0x00, 0x00, 0x00,
  0x04, 0x00, 0x00, 0x00, 0x01, 0x00, 0x00, 0x00, 0x00, 0x00, 0x7f, 0x43,
  0x01, 0x00, 0x00, 0x00, 0x00, 0x00, 0x00, 0x00, 0x07, 0x00, 0x00, 0x00,
  0x69, 0x6e, 0x70, 0x75, 0x74, 0x5f, 0x31, 0x00, 0x02, 0x00, 0x00, 0x00,
  0x01, 0x00, 0x00, 0x00, 0x0e, 0x00, 0x00, 0x00, 0x00, 0x00, 0x0e, 0x00,
  0x14, 0x00, 0x04, 0x00, 0x00, 0x00, 0x08, 0x00, 0x0c, 0x00, 0x10, 0x00,
  0x0e, 0x00, 0x00, 0x00, 0x28, 0x00, 0x00, 0x00, 0x02, 0x00, 0x00, 0x00,
  0x10, 0x00, 0x00, 0x00, 0x08, 0x00, 0x00, 0x00, 0x04, 0x00, 0x04, 0x00,
  0x04, 0x00, 0x00, 0x00, 0x08, 0x00, 0x00, 0x00, 0x49, 0x64, 0x65, 0x6e,
  0x74, 0x69, 0x74, 0x79, 0x00, 0x00, 0x00, 0x00, 0x02, 0x00, 0x00, 0x00,
  0x01, 0x00, 0x00, 0x00, 0x08, 0x00, 0x00, 0x00, 0x03, 0x00, 0x00, 0x00,
  0x28, 0x00, 0x00, 0x00, 0x14, 0x00, 0x00, 0x00, 0x04, 0x00, 0x00, 0x00,
  0xfa, 0xff, 0xff, 0xff, 0x00, 0x1c, 0x06, 0x00, 0x06, 0x00, 0x05, 0x00,
  0x06, 0x00, 0x00, 0x00, 0x00, 0x19, 0x0a, 0x00, 0x0c, 0x00, 0x07, 0x00,
  0x00, 0x00, 0x08, 0x00, 0x0a, 0x00, 0x00, 0x00, 0x00, 0x00, 0x00, 0x09,
  0x03, 0x00, 0x00, 0x00
};
unsigned int SMVNeuralNet_tflite_len = 2776;
