/**
* @file model.h
*
* Generated file from converting the TFLite Model into a buffer array.
*
* @author Ralph Mukusa
* contact: ralph.mukusa@gmail.com
*
**/

#ifndef _MODEL_h
#define _MODEL_h

unsigned char SMVNeuralNet_ReLU_tflite[] = {
  0x1c, 0x00, 0x00, 0x00, 0x54, 0x46, 0x4c, 0x33, 0x00, 0x00, 0x12, 0x00,
  0x1c, 0x00, 0x04, 0x00, 0x08, 0x00, 0x0c, 0x00, 0x10, 0x00, 0x14, 0x00,
  0x00, 0x00, 0x18, 0x00, 0x12, 0x00, 0x00, 0x00, 0x03, 0x00, 0x00, 0x00,
  0xb4, 0x09, 0x00, 0x00, 0x1c, 0x05, 0x00, 0x00, 0x04, 0x05, 0x00, 0x00,
  0x34, 0x00, 0x00, 0x00, 0x04, 0x00, 0x00, 0x00, 0x01, 0x00, 0x00, 0x00,
  0x04, 0x00, 0x00, 0x00, 0xec, 0xf6, 0xff, 0xff, 0x08, 0x00, 0x00, 0x00,
  0x0c, 0x00, 0x00, 0x00, 0x13, 0x00, 0x00, 0x00, 0x6d, 0x69, 0x6e, 0x5f,
  0x72, 0x75, 0x6e, 0x74, 0x69, 0x6d, 0x65, 0x5f, 0x76, 0x65, 0x72, 0x73,
  0x69, 0x6f, 0x6e, 0x00, 0x0d, 0x00, 0x00, 0x00, 0xc4, 0x04, 0x00, 0x00,
  0xbc, 0x04, 0x00, 0x00, 0xb4, 0x04, 0x00, 0x00, 0x84, 0x04, 0x00, 0x00,
  0x7c, 0x04, 0x00, 0x00, 0x74, 0x04, 0x00, 0x00, 0x6c, 0x04, 0x00, 0x00,
  0x9c, 0x02, 0x00, 0x00, 0x6c, 0x02, 0x00, 0x00, 0x5c, 0x01, 0x00, 0x00,
  0x4c, 0x00, 0x00, 0x00, 0x1c, 0x00, 0x00, 0x00, 0x04, 0x00, 0x00, 0x00,
  0xf2, 0xfa, 0xff, 0xff, 0x04, 0x00, 0x00, 0x00, 0x05, 0x00, 0x00, 0x00,
  0x31, 0x2e, 0x35, 0x2e, 0x30, 0x00, 0x00, 0x00, 0x06, 0xfb, 0xff, 0xff,
  0x04, 0x00, 0x00, 0x00, 0x20, 0x00, 0x00, 0x00, 0x4d, 0x9a, 0x68, 0x3d,
  0x15, 0x50, 0x0f, 0xbf, 0x7d, 0x60, 0x38, 0x3e, 0x88, 0x2b, 0x67, 0x3f,
  0x36, 0x2e, 0x9f, 0x3e, 0x16, 0xae, 0x46, 0xbf, 0x5d, 0xe3, 0x85, 0x3e,
  0xb8, 0x24, 0xbf, 0xbe, 0x32, 0xfb, 0xff, 0xff, 0x04, 0x00, 0x00, 0x00,
  0x00, 0x01, 0x00, 0x00, 0x37, 0x9d, 0xa5, 0x3f, 0x4e, 0x88, 0xb6, 0xbf,
  0x96, 0x23, 0x8b, 0x3f, 0x09, 0x0c, 0x54, 0xc0, 0x7f, 0x01, 0x00, 0x3f,
  0x3d, 0x06, 0x29, 0xbf, 0x7e, 0x66, 0x8d, 0x3f, 0xb4, 0x3b, 0x5b, 0xbe,
  0x5a, 0x73, 0xf9, 0x3e, 0xb3, 0x6a, 0x72, 0xbd, 0x98, 0xa5, 0x88, 0xbe,
  0x68, 0x66, 0xe0, 0x3f, 0xae, 0x86, 0x79, 0xbe, 0x2a, 0x67, 0x7f, 0xbe,
  0xce, 0x57, 0xe3, 0x3e, 0x0c, 0xbe, 0xd4, 0xbf, 0xac, 0x15, 0xce, 0xbf,
  0xb6, 0x9a, 0xa5, 0xbe, 0x4a, 0xee, 0xc4, 0x3f, 0x1b, 0xbb, 0x51, 0xc0,
  0x12, 0x59, 0x39, 0xbe, 0x5d, 0x04, 0x23, 0xbf, 0xbb, 0xcc, 0x0f, 0xc0,
  0x3b, 0x11, 0xa6, 0x3f, 0x88, 0x67, 0x62, 0xbd, 0x9e, 0x62, 0x04, 0x40,
  0x85, 0xab, 0x09, 0xc0, 0x53, 0x0a, 0x17, 0xc0, 0xc8, 0x1c, 0x9d, 0xbd,
  0xb6, 0x09, 0x23, 0xc0, 0x8f, 0x58, 0x75, 0x3f, 0x4a, 0x10, 0x20, 0xbf,
  0xc4, 0x20, 0x01, 0xbf, 0x96, 0x2d, 0x3c, 0xc0, 0x06, 0xa2, 0x57, 0xbe,
  0x89, 0xf7, 0x88, 0xbf, 0x0a, 0x0b, 0xe8, 0xbe, 0xc7, 0xdf, 0xd3, 0x3f,
  0x98, 0xde, 0x04, 0xc0, 0xe3, 0x79, 0x80, 0x3f, 0xd3, 0x51, 0x3b, 0xbf,
  0xfb, 0x03, 0xa3, 0x3f, 0x4b, 0x98, 0x60, 0xbf, 0x5c, 0xe8, 0x7c, 0xbe,
  0x34, 0xf6, 0xbf, 0x3e, 0x35, 0xc9, 0x38, 0x3e, 0x13, 0xb3, 0x38, 0xbf,
  0xa6, 0x45, 0xa6, 0x3f, 0x6c, 0xc9, 0x3c, 0xbf, 0x4f, 0xbf, 0xaa, 0x3f,
  0xbb, 0xe6, 0x0f, 0xc0, 0x31, 0x9f, 0xca, 0x3f, 0xb6, 0x0c, 0x07, 0xbe,
  0x68, 0x76, 0x60, 0xbf, 0x55, 0x54, 0x6e, 0xbf, 0x44, 0x44, 0x06, 0xbf,
  0xf5, 0x40, 0xb4, 0xbf, 0xf9, 0x92, 0x64, 0xbf, 0xc5, 0x8e, 0x01, 0xc0,
  0x81, 0x82, 0x98, 0x3f, 0xa8, 0x50, 0x8a, 0xbe, 0xba, 0xcf, 0xad, 0x3f,
  0x45, 0xc1, 0xf1, 0xbe, 0x68, 0xee, 0x18, 0x3f, 0x3e, 0xfc, 0xff, 0xff,
  0x04, 0x00, 0x00, 0x00, 0x00, 0x01, 0x00, 0x00, 0xc3, 0x52, 0x30, 0x3f,
  0xf7, 0x65, 0x92, 0xbe, 0xf9, 0xdd, 0x1b, 0xc0, 0x0c, 0x29, 0xcb, 0xbf,
  0x53, 0xeb, 0x8b, 0x3f, 0xdd, 0xfc, 0xbd, 0xbe, 0x86, 0x76, 0x97, 0x3f,
  0xee, 0xb2, 0x7f, 0x3f, 0x8e, 0x0c, 0xaa, 0x3f, 0xc5, 0x2c, 0xde, 0xbe,
  0x15, 0x0e, 0x36, 0x40, 0xcd, 0x58, 0x3a, 0xbe, 0xf5, 0x3d, 0x96, 0x3e,
  0x71, 0x1b, 0x62, 0xbe, 0x73, 0x26, 0x02, 0xc0, 0x29, 0xee, 0x24, 0x3f,
  0x7d, 0xce, 0x12, 0x3e, 0xb8, 0xed, 0x4f, 0x40, 0x74, 0xf3, 0x4d, 0xbf,
  0xbc, 0x95, 0x98, 0xbf, 0x5f, 0x2c, 0x10, 0x40, 0x90, 0x2a, 0x84, 0xbe,
  0xfc, 0x45, 0x2e, 0x40, 0x3e, 0x8a, 0x6d, 0xbd, 0x28, 0x54, 0x50, 0xbf,
  0xdf, 0xd2, 0xca, 0xbf, 0xd9, 0x98, 0xfe, 0x3f, 0xb1, 0x1e, 0x2b, 0x40,
  0xbc, 0x70, 0x29, 0xbf, 0x94, 0xe5, 0x74, 0x3e, 0xd0, 0xaa, 0xb2, 0xbf,
  0x7a, 0xfb, 0xb9, 0x3f, 0x68, 0xa4, 0x33, 0xbe, 0x96, 0x3b, 0xec, 0x3e,
  0xa4, 0xd0, 0x5c, 0xbe, 0x5f, 0x22, 0x81, 0xbe, 0x79, 0x1e, 0xd6, 0xbe,
  0x60, 0x07, 0x65, 0xbe, 0xff, 0x13, 0xd7, 0xbe, 0xec, 0xe1, 0x15, 0xbe,
  0xfd, 0xdc, 0xc9, 0xbf, 0x7a, 0xfe, 0x2d, 0x3f, 0xfe, 0x22, 0x63, 0xbf,
  0xac, 0x27, 0x1a, 0x40, 0xc8, 0x10, 0x83, 0x3f, 0x35, 0xfe, 0x16, 0x3c,
  0x61, 0x8f, 0x1a, 0xbf, 0x90, 0x9c, 0xde, 0x3f, 0xba, 0x83, 0xb1, 0x3f,
  0xa5, 0xd4, 0xa8, 0xbf, 0xf9, 0xb6, 0xae, 0xbf, 0x25, 0x57, 0x09, 0xc0,
  0xd5, 0xf4, 0x1f, 0x3f, 0x48, 0x2d, 0xad, 0x3e, 0x8c, 0x4f, 0x92, 0x3f,
  0x3a, 0x98, 0xa0, 0x3f, 0xf2, 0x78, 0xa1, 0xbf, 0xd5, 0x9a, 0x05, 0x40,
  0x69, 0x33, 0x82, 0x3f, 0xb2, 0xde, 0xb0, 0x3f, 0x32, 0xe0, 0x67, 0x3f,
  0xfd, 0x8c, 0x21, 0x3e, 0xcb, 0xa3, 0xd7, 0xbf, 0x14, 0x88, 0x73, 0xbe,
  0x4a, 0xfd, 0xff, 0xff, 0x04, 0x00, 0x00, 0x00, 0x20, 0x00, 0x00, 0x00,
  0xaf, 0x00, 0xe0, 0x3e, 0xd3, 0x2d, 0xb4, 0x3e, 0x67, 0xa9, 0xcf, 0x3e,
  0xe4, 0xdb, 0xc1, 0x3e, 0x0c, 0x61, 0x0f, 0x3f, 0x61, 0x68, 0xbc, 0xbd,
  0x04, 0x48, 0x2f, 0x3e, 0x45, 0x74, 0x1b, 0x3f, 0x76, 0xfd, 0xff, 0xff,
  0x04, 0x00, 0x00, 0x00, 0xc0, 0x01, 0x00, 0x00, 0xdf, 0x04, 0x9f, 0xbf,
  0x74, 0xcd, 0x00, 0xbf, 0x18, 0x00, 0x9b, 0x3f, 0x55, 0x1f, 0x7e, 0x3f,
  0x8c, 0xd8, 0x64, 0xbe, 0x20, 0x90, 0x34, 0xbf, 0xfc, 0x47, 0x1d, 0xbe,
  0x77, 0xee, 0x32, 0x40, 0xd1, 0x4b, 0xda, 0xbe, 0xca, 0xe1, 0xee, 0xbe,
  0x3b, 0xd1, 0x80, 0x3f, 0x89, 0x35, 0x71, 0xc0, 0x5d, 0x6f, 0x76, 0x3f,
  0x4a, 0xb8, 0x8b, 0x3e, 0x4a, 0x2d, 0xbf, 0x3f, 0x2c, 0xc2, 0x96, 0x3e,
  0xe2, 0x32, 0x0a, 0x40, 0x95, 0x37, 0xe1, 0xbf, 0x7a, 0x9d, 0xb2, 0x3f,
  0xee, 0xc9, 0x65, 0xbf, 0x80, 0xf2, 0xb2, 0x3f, 0x3f, 0x06, 0x10, 0xc0,
  0x94, 0x8b, 0x13, 0xc0, 0x92, 0x9b, 0xc9, 0xbf, 0xda, 0x12, 0x94, 0xc0,
  0xc1, 0xac, 0xf0, 0x3f, 0x1f, 0x75, 0x1d, 0xbe, 0x6b, 0x04, 0x98, 0x3e,
  0xcf, 0x2b, 0x9e, 0x40, 0xbf, 0x10, 0x7b, 0x3f, 0xae, 0xa7, 0xfd, 0x3e,
  0x30, 0x69, 0xc5, 0x3f, 0x76, 0x7b, 0xa4, 0x40, 0xfe, 0x9c, 0xd6, 0x3f,
  0x01, 0x3f, 0xd2, 0x3e, 0x54, 0x10, 0xa4, 0x3f, 0x48, 0x63, 0xf8, 0xbf,
  0x86, 0xe9, 0xab, 0xbe, 0x0f, 0xdf, 0x54, 0xc0, 0xa7, 0xb2, 0x75, 0xc0,
  0x78, 0x36, 0x67, 0xbe, 0x3b, 0xc5, 0x9e, 0x3f, 0x99, 0x9c, 0x8b, 0x40,
  0x8d, 0x14, 0xda, 0x3f, 0xc6, 0xd9, 0x41, 0xbf, 0x58, 0x81, 0xad, 0x3f,
  0x76, 0x75, 0x89, 0x40, 0xd8, 0xdb, 0xf2, 0x3f, 0x6f, 0x09, 0x05, 0x3f,
  0xd4, 0x0c, 0x2d, 0xc0, 0xaf, 0x70, 0x78, 0xbe, 0x17, 0x81, 0x65, 0x3e,
  0x06, 0xfb, 0x2d, 0xbe, 0x9f, 0xc7, 0x27, 0x40, 0x8e, 0xba, 0x98, 0xbe,
  0x21, 0x78, 0xa2, 0x3f, 0x18, 0xc5, 0x33, 0xc0, 0x9b, 0x87, 0x5d, 0xbf,
  0x8d, 0xb1, 0x18, 0x40, 0x3d, 0xc4, 0xea, 0xbf, 0x92, 0x15, 0xb1, 0xbf,
  0x7e, 0xbd, 0xed, 0xbf, 0x39, 0xeb, 0x62, 0xbf, 0x4d, 0x56, 0x6d, 0xbf,
  0xbf, 0x41, 0xbe, 0xbf, 0xaa, 0xb7, 0x88, 0xbf, 0xf6, 0x7f, 0x71, 0xc0,
  0x84, 0x89, 0x0c, 0x3f, 0x45, 0x14, 0x7b, 0x3f, 0x83, 0xd3, 0x20, 0x3d,
  0x99, 0xe9, 0x16, 0xbf, 0x45, 0xe2, 0x01, 0x3e, 0xc8, 0x1f, 0xcc, 0x3e,
  0xc8, 0x02, 0x89, 0xbe, 0x62, 0x2a, 0xbc, 0xbd, 0xf2, 0xa7, 0xdc, 0x3e,
  0xd5, 0xca, 0x21, 0x3e, 0x6e, 0xe8, 0xd4, 0xbd, 0x1b, 0xc9, 0xa6, 0xbe,
  0xa4, 0xee, 0x5d, 0x3e, 0xd5, 0xaa, 0xd5, 0xbe, 0xa5, 0xbe, 0x51, 0x3e,
  0x1a, 0x74, 0x16, 0xbf, 0x09, 0xa1, 0x36, 0xbe, 0xf8, 0x88, 0xbc, 0xc0,
  0x74, 0x3d, 0x88, 0xbf, 0xf5, 0x1f, 0xc7, 0xbd, 0xe4, 0xb6, 0x02, 0xc0,
  0xc4, 0x32, 0x9e, 0xc0, 0x2c, 0x9a, 0x41, 0xc0, 0xc6, 0xe3, 0x57, 0xbf,
  0xa6, 0xbd, 0x30, 0xbf, 0x8c, 0x38, 0xc6, 0xbe, 0xba, 0x83, 0x77, 0x3f,
  0xa5, 0x2f, 0x2d, 0x40, 0x14, 0xf3, 0x2e, 0x3f, 0x51, 0xab, 0x31, 0x3f,
  0x42, 0x04, 0x10, 0xc0, 0xa8, 0xb2, 0x74, 0x40, 0x2f, 0xd4, 0x45, 0x3e,
  0xf9, 0x44, 0xd6, 0xbd, 0xb3, 0x24, 0x1e, 0x40, 0x99, 0xc6, 0x88, 0x40,
  0xa7, 0x52, 0xdb, 0x3f, 0x07, 0x0d, 0xd5, 0xbf, 0x10, 0x88, 0xc9, 0xbf,
  0x06, 0x1b, 0xd2, 0x3e, 0xe4, 0x6a, 0x51, 0x3f, 0xb6, 0xcf, 0xef, 0x3f,
  0xf5, 0xe8, 0x36, 0x40, 0x88, 0x96, 0xc7, 0x3e, 0x6e, 0x88, 0x22, 0x3f,
  0x38, 0xfb, 0xff, 0xff, 0x3c, 0xfb, 0xff, 0xff, 0x40, 0xfb, 0xff, 0xff,
  0x4e, 0xff, 0xff, 0xff, 0x04, 0x00, 0x00, 0x00, 0x20, 0x00, 0x00, 0x00,
  0x17, 0xd1, 0xce, 0x3e, 0x44, 0x99, 0xe1, 0x3d, 0xeb, 0x31, 0x23, 0x3d,
  0x37, 0xcd, 0x93, 0xbe, 0x00, 0x00, 0x00, 0x00, 0xc6, 0x00, 0x18, 0x3f,
  0x00, 0x61, 0xd8, 0x3e, 0x21, 0x13, 0xf3, 0xbd, 0x70, 0xfb, 0xff, 0xff,
  0x74, 0xfb, 0xff, 0xff, 0x78, 0xfb, 0xff, 0xff, 0x0f, 0x00, 0x00, 0x00,
  0x54, 0x4f, 0x43, 0x4f, 0x20, 0x43, 0x6f, 0x6e, 0x76, 0x65, 0x72, 0x74,
  0x65, 0x64, 0x2e, 0x00, 0x01, 0x00, 0x00, 0x00, 0x10, 0x00, 0x00, 0x00,
  0x0c, 0x00, 0x14, 0x00, 0x04, 0x00, 0x08, 0x00, 0x0c, 0x00, 0x10, 0x00,
  0x0c, 0x00, 0x00, 0x00, 0x3c, 0x01, 0x00, 0x00, 0x30, 0x01, 0x00, 0x00,
  0x24, 0x01, 0x00, 0x00, 0x04, 0x00, 0x00, 0x00, 0x04, 0x00, 0x00, 0x00,
  0xdc, 0x00, 0x00, 0x00, 0x94, 0x00, 0x00, 0x00, 0x50, 0x00, 0x00, 0x00,
  0x14, 0x00, 0x00, 0x00, 0x00, 0x00, 0x0e, 0x00, 0x1a, 0x00, 0x08, 0x00,
  0x0c, 0x00, 0x10, 0x00, 0x07, 0x00, 0x14, 0x00, 0x0e, 0x00, 0x00, 0x00,
  0x00, 0x00, 0x00, 0x09, 0x01, 0x00, 0x00, 0x00, 0x24, 0x00, 0x00, 0x00,
  0x18, 0x00, 0x00, 0x00, 0x0c, 0x00, 0x00, 0x00, 0x00, 0x00, 0x06, 0x00,
  0x08, 0x00, 0x04, 0x00, 0x06, 0x00, 0x00, 0x00, 0x00, 0x00, 0x80, 0x3f,
  0x01, 0x00, 0x00, 0x00, 0x00, 0x00, 0x00, 0x00, 0x01, 0x00, 0x00, 0x00,
  0x08, 0x00, 0x00, 0x00, 0xce, 0xff, 0xff, 0xff, 0x00, 0x00, 0x00, 0x08,
  0x18, 0x00, 0x00, 0x00, 0x0c, 0x00, 0x00, 0x00, 0x04, 0x00, 0x00, 0x00,
  0x28, 0xfc, 0xff, 0xff, 0x01, 0x00, 0x00, 0x00, 0x08, 0x00, 0x00, 0x00,
  0x03, 0x00, 0x00, 0x00, 0x07, 0x00, 0x00, 0x00, 0x09, 0x00, 0x00, 0x00,
  0x0a, 0x00, 0x00, 0x00, 0x00, 0x00, 0x0e, 0x00, 0x14, 0x00, 0x00, 0x00,
  0x08, 0x00, 0x0c, 0x00, 0x07, 0x00, 0x10, 0x00, 0x0e, 0x00, 0x00, 0x00,
  0x00, 0x00, 0x00, 0x08, 0x1c, 0x00, 0x00, 0x00, 0x10, 0x00, 0x00, 0x00,
  0x04, 0x00, 0x00, 0x00, 0xba, 0xff, 0xff, 0xff, 0x00, 0x00, 0x00, 0x01,
  0x01, 0x00, 0x00, 0x00, 0x07, 0x00, 0x00, 0x00, 0x03, 0x00, 0x00, 0x00,
  0x04, 0x00, 0x00, 0x00, 0x05, 0x00, 0x00, 0x00, 0x06, 0x00, 0x00, 0x00,
  0x00, 0x00, 0x0e, 0x00, 0x16, 0x00, 0x00, 0x00, 0x08, 0x00, 0x0c, 0x00,
  0x07, 0x00, 0x10, 0x00, 0x0e, 0x00, 0x00, 0x00, 0x00, 0x00, 0x00, 0x08,
  0x24, 0x00, 0x00, 0x00, 0x18, 0x00, 0x00, 0x00, 0x0c, 0x00, 0x00, 0x00,
  0x00, 0x00, 0x06, 0x00, 0x08, 0x00, 0x07, 0x00, 0x06, 0x00, 0x00, 0x00,
  0x00, 0x00, 0x00, 0x01, 0x01, 0x00, 0x00, 0x00, 0x04, 0x00, 0x00, 0x00,
  0x03, 0x00, 0x00, 0x00, 0x01, 0x00, 0x00, 0x00, 0x02, 0x00, 0x00, 0x00,
  0x03, 0x00, 0x00, 0x00, 0x01, 0x00, 0x00, 0x00, 0x00, 0x00, 0x00, 0x00,
  0x01, 0x00, 0x00, 0x00, 0x01, 0x00, 0x00, 0x00, 0x0b, 0x00, 0x00, 0x00,
  0x04, 0x03, 0x00, 0x00, 0xa0, 0x02, 0x00, 0x00, 0x48, 0x02, 0x00, 0x00,
  0x08, 0x02, 0x00, 0x00, 0xc8, 0x01, 0x00, 0x00, 0x6c, 0x01, 0x00, 0x00,
  0x28, 0x01, 0x00, 0x00, 0xe8, 0x00, 0x00, 0x00, 0xa4, 0x00, 0x00, 0x00,
  0x48, 0x00, 0x00, 0x00, 0x04, 0x00, 0x00, 0x00, 0x36, 0xfd, 0xff, 0xff,
  0x34, 0x00, 0x00, 0x00, 0x0b, 0x00, 0x00, 0x00, 0x0c, 0x00, 0x00, 0x00,
  0x04, 0x00, 0x00, 0x00, 0x28, 0xfd, 0xff, 0xff, 0x19, 0x00, 0x00, 0x00,
  0x6d, 0x6f, 0x64, 0x65, 0x6c, 0x2f, 0x64, 0x65, 0x6e, 0x73, 0x65, 0x5f,
  0x32, 0x2f, 0x4d, 0x61, 0x74, 0x4d, 0x75, 0x6c, 0x5f, 0x62, 0x69, 0x61,
  0x73, 0x00, 0x00, 0x00, 0x01, 0x00, 0x00, 0x00, 0x08, 0x00, 0x00, 0x00,
  0x76, 0xfd, 0xff, 0xff, 0x48, 0x00, 0x00, 0x00, 0x0a, 0x00, 0x00, 0x00,
  0x0c, 0x00, 0x00, 0x00, 0x04, 0x00, 0x00, 0x00, 0x68, 0xfd, 0xff, 0xff,
  0x2d, 0x00, 0x00, 0x00, 0x6d, 0x6f, 0x64, 0x65, 0x6c, 0x2f, 0x64, 0x65,
  0x6e, 0x73, 0x65, 0x5f, 0x32, 0x2f, 0x4d, 0x61, 0x74, 0x4d, 0x75, 0x6c,
  0x2f, 0x52, 0x65, 0x61, 0x64, 0x56, 0x61, 0x72, 0x69, 0x61, 0x62, 0x6c,
  0x65, 0x4f, 0x70, 0x2f, 0x74, 0x72, 0x61, 0x6e, 0x73, 0x70, 0x6f, 0x73,
  0x65, 0x00, 0x00, 0x00, 0x02, 0x00, 0x00, 0x00, 0x08, 0x00, 0x00, 0x00,
  0x08, 0x00, 0x00, 0x00, 0xce, 0xfd, 0xff, 0xff, 0x30, 0x00, 0x00, 0x00,
  0x06, 0x00, 0x00, 0x00, 0x0c, 0x00, 0x00, 0x00, 0x04, 0x00, 0x00, 0x00,
  0xc0, 0xfd, 0xff, 0xff, 0x15, 0x00, 0x00, 0x00, 0x6d, 0x6f, 0x64, 0x65,
  0x6c, 0x2f, 0x64, 0x65, 0x6e, 0x73, 0x65, 0x5f, 0x32, 0x2f, 0x42, 0x69,
  0x61, 0x73, 0x41, 0x64, 0x64, 0x00, 0x00, 0x00, 0x02, 0x00, 0x00, 0x00,
  0x01, 0x00, 0x00, 0x00, 0x08, 0x00, 0x00, 0x00, 0x0e, 0xfe, 0xff, 0xff,
  0x2c, 0x00, 0x00, 0x00, 0x05, 0x00, 0x00, 0x00, 0x0c, 0x00, 0x00, 0x00,
  0x04, 0x00, 0x00, 0x00, 0x00, 0xfe, 0xff, 0xff, 0x12, 0x00, 0x00, 0x00,
  0x6d, 0x6f, 0x64, 0x65, 0x6c, 0x2f, 0x64, 0x65, 0x6e, 0x73, 0x65, 0x5f,
  0x31, 0x2f, 0x52, 0x65, 0x6c, 0x75, 0x00, 0x00, 0x02, 0x00, 0x00, 0x00,
  0x01, 0x00, 0x00, 0x00, 0x08, 0x00, 0x00, 0x00, 0x4a, 0xfe, 0xff, 0xff,
  0x34, 0x00, 0x00, 0x00, 0x03, 0x00, 0x00, 0x00, 0x0c, 0x00, 0x00, 0x00,
  0x04, 0x00, 0x00, 0x00, 0x3c, 0xfe, 0xff, 0xff, 0x19, 0x00, 0x00, 0x00,
  0x6d, 0x6f, 0x64, 0x65, 0x6c, 0x2f, 0x64, 0x65, 0x6e, 0x73, 0x65, 0x5f,
  0x31, 0x2f, 0x4d, 0x61, 0x74, 0x4d, 0x75, 0x6c, 0x5f, 0x62, 0x69, 0x61,
  0x73, 0x00, 0x00, 0x00, 0x01, 0x00, 0x00, 0x00, 0x08, 0x00, 0x00, 0x00,
  0x8a, 0xfe, 0xff, 0xff, 0x48, 0x00, 0x00, 0x00, 0x09, 0x00, 0x00, 0x00,
  0x0c, 0x00, 0x00, 0x00, 0x04, 0x00, 0x00, 0x00, 0x7c, 0xfe, 0xff, 0xff,
  0x2d, 0x00, 0x00, 0x00, 0x6d, 0x6f, 0x64, 0x65, 0x6c, 0x2f, 0x64, 0x65,
  0x6e, 0x73, 0x65, 0x5f, 0x31, 0x2f, 0x4d, 0x61, 0x74, 0x4d, 0x75, 0x6c,
  0x2f, 0x52, 0x65, 0x61, 0x64, 0x56, 0x61, 0x72, 0x69, 0x61, 0x62, 0x6c,
  0x65, 0x4f, 0x70, 0x2f, 0x74, 0x72, 0x61, 0x6e, 0x73, 0x70, 0x6f, 0x73,
  0x65, 0x00, 0x00, 0x00, 0x02, 0x00, 0x00, 0x00, 0x08, 0x00, 0x00, 0x00,
  0x08, 0x00, 0x00, 0x00, 0xe2, 0xfe, 0xff, 0xff, 0x2c, 0x00, 0x00, 0x00,
  0x04, 0x00, 0x00, 0x00, 0x0c, 0x00, 0x00, 0x00, 0x04, 0x00, 0x00, 0x00,
  0xd4, 0xfe, 0xff, 0xff, 0x10, 0x00, 0x00, 0x00, 0x6d, 0x6f, 0x64, 0x65,
  0x6c, 0x2f, 0x64, 0x65, 0x6e, 0x73, 0x65, 0x2f, 0x52, 0x65, 0x6c, 0x75,
  0x00, 0x00, 0x00, 0x00, 0x02, 0x00, 0x00, 0x00, 0x01, 0x00, 0x00, 0x00,
  0x08, 0x00, 0x00, 0x00, 0x1e, 0xff, 0xff, 0xff, 0x30, 0x00, 0x00, 0x00,
  0x08, 0x00, 0x00, 0x00, 0x0c, 0x00, 0x00, 0x00, 0x04, 0x00, 0x00, 0x00,
  0x10, 0xff, 0xff, 0xff, 0x17, 0x00, 0x00, 0x00, 0x6d, 0x6f, 0x64, 0x65,
  0x6c, 0x2f, 0x64, 0x65, 0x6e, 0x73, 0x65, 0x2f, 0x4d, 0x61, 0x74, 0x4d,
  0x75, 0x6c, 0x5f, 0x62, 0x69, 0x61, 0x73, 0x00, 0x01, 0x00, 0x00, 0x00,
  0x08, 0x00, 0x00, 0x00, 0x5a, 0xff, 0xff, 0xff, 0x44, 0x00, 0x00, 0x00,
  0x07, 0x00, 0x00, 0x00, 0x0c, 0x00, 0x00, 0x00, 0x04, 0x00, 0x00, 0x00,
  0x4c, 0xff, 0xff, 0xff, 0x2b, 0x00, 0x00, 0x00, 0x6d, 0x6f, 0x64, 0x65,
  0x6c, 0x2f, 0x64, 0x65, 0x6e, 0x73, 0x65, 0x2f, 0x4d, 0x61, 0x74, 0x4d,
  0x75, 0x6c, 0x2f, 0x52, 0x65, 0x61, 0x64, 0x56, 0x61, 0x72, 0x69, 0x61,
  0x62, 0x6c, 0x65, 0x4f, 0x70, 0x2f, 0x74, 0x72, 0x61, 0x6e, 0x73, 0x70,
  0x6f, 0x73, 0x65, 0x00, 0x02, 0x00, 0x00, 0x00, 0x08, 0x00, 0x00, 0x00,
  0x0e, 0x00, 0x00, 0x00, 0xae, 0xff, 0xff, 0xff, 0x40, 0x00, 0x00, 0x00,
  0x01, 0x00, 0x00, 0x00, 0x2c, 0x00, 0x00, 0x00, 0x0c, 0x00, 0x00, 0x00,
  0x08, 0x00, 0x0c, 0x00, 0x04, 0x00, 0x08, 0x00, 0x08, 0x00, 0x00, 0x00,
  0x10, 0x00, 0x00, 0x00, 0x04, 0x00, 0x00, 0x00, 0x01, 0x00, 0x00, 0x00,
  0x00, 0x00, 0x7f, 0x43, 0x01, 0x00, 0x00, 0x00, 0x00, 0x00, 0x00, 0x00,
  0x07, 0x00, 0x00, 0x00, 0x69, 0x6e, 0x70, 0x75, 0x74, 0x5f, 0x31, 0x00,
  0x02, 0x00, 0x00, 0x00, 0x01, 0x00, 0x00, 0x00, 0x0e, 0x00, 0x00, 0x00,
  0x00, 0x00, 0x0e, 0x00, 0x14, 0x00, 0x04, 0x00, 0x00, 0x00, 0x08, 0x00,
  0x0c, 0x00, 0x10, 0x00, 0x0e, 0x00, 0x00, 0x00, 0x28, 0x00, 0x00, 0x00,
  0x02, 0x00, 0x00, 0x00, 0x10, 0x00, 0x00, 0x00, 0x08, 0x00, 0x00, 0x00,
  0x04, 0x00, 0x04, 0x00, 0x04, 0x00, 0x00, 0x00, 0x08, 0x00, 0x00, 0x00,
  0x49, 0x64, 0x65, 0x6e, 0x74, 0x69, 0x74, 0x79, 0x00, 0x00, 0x00, 0x00,
  0x02, 0x00, 0x00, 0x00, 0x01, 0x00, 0x00, 0x00, 0x08, 0x00, 0x00, 0x00,
  0x02, 0x00, 0x00, 0x00, 0x20, 0x00, 0x00, 0x00, 0x0c, 0x00, 0x00, 0x00,
  0x00, 0x00, 0x06, 0x00, 0x06, 0x00, 0x05, 0x00, 0x06, 0x00, 0x00, 0x00,
  0x00, 0x19, 0x0a, 0x00, 0x0c, 0x00, 0x07, 0x00, 0x00, 0x00, 0x08, 0x00,
  0x0a, 0x00, 0x00, 0x00, 0x00, 0x00, 0x00, 0x09, 0x03, 0x00, 0x00, 0x00
};

unsigned int SMVNeuralNet_ReLU_tflite_len = 2568;

#endif
